00000000
00000000
00000000
00000000
00000000
00000000
00000000
00000000
00000000
00000000
00000000
00000000
00000000
00000000
00000000
00000000
00000000
00000000
00000000
00000001
00000001
00000001
00000001
00000001
00000001
00000001
00000001
00000001
00000001
00000010
00000010
00000010
00000010
00000010
00000011
00000011
00000011
00000011
00000100
00000100
00000101
00000101
00000110
00000110
00000111
00000111
00001000
00001001
00001001
00001010
00001011
00001100
00001101
00001110
00001111
00010000
00010010
00010011
00010100
00010110
00011000
00011001
00011011
00011101
00011111
00100001
00100100
00100110
00101000
00101011
00101110
00110000
00110011
00110110
00111010
00111101
01000000
01000100
01000111
01001011
01001111
01010011
01010111
01011011
01100000
01100100
01101001
01101101
01110010
01110111
01111011
10000000
10000101
10001010
10001111
10010100
10011001
10011110
10100011
10101000
10101101
10110010
10110111
10111100
11000001
11000101
11001010
11001110
11010011
11010111
11011011
11011111
11100010
11100110
11101001
11101100
11101111
11110010
11110100
11110110
11111000
11111010
11111100
11111101
11111110
11111110
11111111
11111111
11111111
11111110
11111110
11111101
11111100
11111010
11111000
11110110
11110100
11110010
11101111
11101100
11101001
11100110
11100010
11011111
11011011
11010111
11010011
11001110
11001010
11000101
11000001
10111100
10110111
10110010
10101101
10101000
10100011
10011110
10011001
10010100
10001111
10001010
10000101
10000000
01111011
01110111
01110010
01101101
01101001
01100100
01100000
01011011
01010111
01010011
01001111
01001011
01000111
01000100
01000000
00111101
00111010
00110110
00110011
00110000
00101110
00101011
00101000
00100110
00100100
00100001
00011111
00011101
00011011
00011001
00011000
00010110
00010100
00010011
00010010
00010000
00001111
00001110
00001101
00001100
00001011
00001010
00001001
00001001
00001000
00000111
00000111
00000110
00000110
00000101
00000101
00000100
00000100
00000011
00000011
00000011
00000011
00000010
00000010
00000010
00000010
00000010
00000001
00000001
00000001
00000001
00000001
00000001
00000001
00000001
00000001
00000001
00000000
00000000
00000000
00000000
00000000
00000000
00000000
00000000
00000000
00000000
00000000
00000000
00000000
00000000
00000000
00000000
00000000
00000000
00000000
00000000
