memory_initialization_radix = 16;
memory_initialization_vector = 
201,
202,
203,
205,
206,
207,
209,
20A,
20B,
20D,
20E,
20F,
211,
212,
213,
214,
216,
217,
218,
21A,
21B,
21C,
21E,
21F,
220,
222,
223,
224,
226,
227,
229,
22A,
22B,
22D,
22E,
22F,
231,
232,
233,
235,
236,
237,
239,
23A,
23B,
23D,
23E,
23F,
241,
242,
243,
245,
246,
247,
249,
24A,
24C,
24D,
24E,
250,
251,
252,
254,
255,
256,
258,
259,
25A,
25C,
25D,
25E,
260,
261,
263,
264,
265,
267,
268,
269,
26B,
26C,
26D,
26F,
270,
271,
273,
274,
275,
277,
278,
27A,
27B,
27C,
27E,
27F,
280,
282,
283,
284,
286,
287,
288,
28A,
28B,
28D,
28E,
28F,
291,
292,
293,
295,
296,
297,
299,
29A,
29B,
29D,
29E,
29F,
2A1,
2A2,
2A3,
2A5,
2A6,
2A7,
2A9,
2AA,
2AC,
2AD,
2AE,
2B0,
2B1,
2B2,
2B4,
2B5,
2B6,
2B8,
2B9,
2BA,
2BC,
2BD,
2BE,
2C0,
2C1,
2C2,
2C4,
2C5,
2C6,
2C8,
2C9,
2CA,
2CB,
2CD,
2CE,
2CF,
2D1,
2D2,
2D3,
2D5,
2D6,
2D7,
2D9,
2DA,
2DB,
2DD,
2DE,
2DF,
2E1,
2E2,
2E3,
2E4,
2E6,
2E7,
2E8,
2EA,
2EB,
2EC,
2ED,
2EF,
2F0,
2F1,
2F3,
2F4,
2F5,
2F7,
2F8,
2F9,
2FA,
2FC,
2FD,
2FE,
2FF,
301,
302,
303,
305,
306,
307,
308,
30A,
30B,
30C,
30D,
30F,
310,
311,
312,
314,
315,
316,
317,
319,
31A,
31B,
31C,
31D,
31F,
320,
321,
322,
324,
325,
326,
327,
328,
32A,
32B,
32C,
32D,
32F,
330,
331,
332,
333,
335,
336,
337,
338,
339,
33A,
33C,
33D,
33E,
33F,
340,
341,
343,
344,
345,
346,
347,
348,
34A,
34B,
34C,
34D,
34E,
34F,
350,
352,
353,
354,
355,
356,
357,
358,
359,
35B,
35C,
35D,
35E,
35F,
360,
361,
362,
363,
364,
366,
367,
368,
369,
36A,
36B,
36C,
36D,
36E,
36F,
370,
371,
372,
373,
374,
376,
377,
378,
379,
37A,
37B,
37C,
37D,
37E,
37F,
380,
381,
382,
383,
384,
385,
386,
387,
388,
389,
38A,
38B,
38C,
38D,
38E,
38F,
390,
391,
391,
392,
393,
394,
395,
396,
397,
398,
399,
39A,
39B,
39C,
39D,
39E,
39E,
39F,
3A0,
3A1,
3A2,
3A3,
3A4,
3A5,
3A6,
3A6,
3A7,
3A8,
3A9,
3AA,
3AB,
3AC,
3AC,
3AD,
3AE,
3AF,
3B0,
3B1,
3B2,
3B2,
3B3,
3B4,
3B5,
3B6,
3B6,
3B7,
3B8,
3B9,
3BA,
3BA,
3BB,
3BC,
3BD,
3BD,
3BE,
3BF,
3C0,
3C0,
3C1,
3C2,
3C3,
3C3,
3C4,
3C5,
3C6,
3C6,
3C7,
3C8,
3C8,
3C9,
3CA,
3CB,
3CB,
3CC,
3CD,
3CD,
3CE,
3CF,
3CF,
3D0,
3D1,
3D1,
3D2,
3D3,
3D3,
3D4,
3D5,
3D5,
3D6,
3D6,
3D7,
3D8,
3D8,
3D9,
3D9,
3DA,
3DB,
3DB,
3DC,
3DC,
3DD,
3DD,
3DE,
3DF,
3DF,
3E0,
3E0,
3E1,
3E1,
3E2,
3E2,
3E3,
3E3,
3E4,
3E4,
3E5,
3E5,
3E6,
3E6,
3E7,
3E7,
3E8,
3E8,
3E9,
3E9,
3EA,
3EA,
3EB,
3EB,
3EC,
3EC,
3EC,
3ED,
3ED,
3EE,
3EE,
3EF,
3EF,
3EF,
3F0,
3F0,
3F1,
3F1,
3F1,
3F2,
3F2,
3F2,
3F3,
3F3,
3F3,
3F4,
3F4,
3F4,
3F5,
3F5,
3F5,
3F6,
3F6,
3F6,
3F7,
3F7,
3F7,
3F8,
3F8,
3F8,
3F8,
3F9,
3F9,
3F9,
3F9,
3FA,
3FA,
3FA,
3FA,
3FB,
3FB,
3FB,
3FB,
3FC,
3FC,
3FC,
3FC,
3FC,
3FC,
3FD,
3FD,
3FD,
3FD,
3FD,
3FE,
3FE,
3FE,
3FE,
3FE,
3FE,
3FE,
3FE,
3FF,
3FF,
3FF,
3FF,
3FF,
3FF,
3FF,
3FF,
3FF,
3FF,
400,
400,
400,
400,
400,
400,
400,
400,
400,
400,
400,
400,
400,
400,
400,
400,
400,
400,
400,
400,
400,
400,
400,
400,
400,
400,
400,
400,
400,
3FF,
3FF,
3FF,
3FF,
3FF,
3FF,
3FF,
3FF,
3FF,
3FF,
3FE,
3FE,
3FE,
3FE,
3FE,
3FE,
3FE,
3FE,
3FD,
3FD,
3FD,
3FD,
3FD,
3FC,
3FC,
3FC,
3FC,
3FC,
3FC,
3FB,
3FB,
3FB,
3FB,
3FA,
3FA,
3FA,
3FA,
3F9,
3F9,
3F9,
3F9,
3F8,
3F8,
3F8,
3F8,
3F7,
3F7,
3F7,
3F6,
3F6,
3F6,
3F5,
3F5,
3F5,
3F4,
3F4,
3F4,
3F3,
3F3,
3F3,
3F2,
3F2,
3F2,
3F1,
3F1,
3F1,
3F0,
3F0,
3EF,
3EF,
3EF,
3EE,
3EE,
3ED,
3ED,
3EC,
3EC,
3EC,
3EB,
3EB,
3EA,
3EA,
3E9,
3E9,
3E8,
3E8,
3E7,
3E7,
3E6,
3E6,
3E5,
3E5,
3E4,
3E4,
3E3,
3E3,
3E2,
3E2,
3E1,
3E1,
3E0,
3E0,
3DF,
3DF,
3DE,
3DD,
3DD,
3DC,
3DC,
3DB,
3DB,
3DA,
3D9,
3D9,
3D8,
3D8,
3D7,
3D6,
3D6,
3D5,
3D5,
3D4,
3D3,
3D3,
3D2,
3D1,
3D1,
3D0,
3CF,
3CF,
3CE,
3CD,
3CD,
3CC,
3CB,
3CB,
3CA,
3C9,
3C8,
3C8,
3C7,
3C6,
3C6,
3C5,
3C4,
3C3,
3C3,
3C2,
3C1,
3C0,
3C0,
3BF,
3BE,
3BD,
3BD,
3BC,
3BB,
3BA,
3BA,
3B9,
3B8,
3B7,
3B6,
3B6,
3B5,
3B4,
3B3,
3B2,
3B2,
3B1,
3B0,
3AF,
3AE,
3AD,
3AC,
3AC,
3AB,
3AA,
3A9,
3A8,
3A7,
3A6,
3A6,
3A5,
3A4,
3A3,
3A2,
3A1,
3A0,
39F,
39E,
39E,
39D,
39C,
39B,
39A,
399,
398,
397,
396,
395,
394,
393,
392,
391,
391,
390,
38F,
38E,
38D,
38C,
38B,
38A,
389,
388,
387,
386,
385,
384,
383,
382,
381,
380,
37F,
37E,
37D,
37C,
37B,
37A,
379,
378,
377,
376,
374,
373,
372,
371,
370,
36F,
36E,
36D,
36C,
36B,
36A,
369,
368,
367,
366,
364,
363,
362,
361,
360,
35F,
35E,
35D,
35C,
35B,
359,
358,
357,
356,
355,
354,
353,
352,
350,
34F,
34E,
34D,
34C,
34B,
34A,
348,
347,
346,
345,
344,
343,
341,
340,
33F,
33E,
33D,
33C,
33A,
339,
338,
337,
336,
335,
333,
332,
331,
330,
32F,
32D,
32C,
32B,
32A,
328,
327,
326,
325,
324,
322,
321,
320,
31F,
31D,
31C,
31B,
31A,
319,
317,
316,
315,
314,
312,
311,
310,
30F,
30D,
30C,
30B,
30A,
308,
307,
306,
305,
303,
302,
301,
2FF,
2FE,
2FD,
2FC,
2FA,
2F9,
2F8,
2F7,
2F5,
2F4,
2F3,
2F1,
2F0,
2EF,
2ED,
2EC,
2EB,
2EA,
2E8,
2E7,
2E6,
2E4,
2E3,
2E2,
2E1,
2DF,
2DE,
2DD,
2DB,
2DA,
2D9,
2D7,
2D6,
2D5,
2D3,
2D2,
2D1,
2CF,
2CE,
2CD,
2CB,
2CA,
2C9,
2C8,
2C6,
2C5,
2C4,
2C2,
2C1,
2C0,
2BE,
2BD,
2BC,
2BA,
2B9,
2B8,
2B6,
2B5,
2B4,
2B2,
2B1,
2B0,
2AE,
2AD,
2AC,
2AA,
2A9,
2A7,
2A6,
2A5,
2A3,
2A2,
2A1,
29F,
29E,
29D,
29B,
29A,
299,
297,
296,
295,
293,
292,
291,
28F,
28E,
28D,
28B,
28A,
288,
287,
286,
284,
283,
282,
280,
27F,
27E,
27C,
27B,
27A,
278,
277,
275,
274,
273,
271,
270,
26F,
26D,
26C,
26B,
269,
268,
267,
265,
264,
263,
261,
260,
25E,
25D,
25C,
25A,
259,
258,
256,
255,
254,
252,
251,
250,
24E,
24D,
24C,
24A,
249,
247,
246,
245,
243,
242,
241,
23F,
23E,
23D,
23B,
23A,
239,
237,
236,
235,
233,
232,
231,
22F,
22E,
22D,
22B,
22A,
229,
227,
226,
224,
223,
222,
220,
21F,
21E,
21C,
21B,
21A,
218,
217,
216,
214,
213,
212,
211,
20F,
20E,
20D,
20B,
20A,
209,
207,
206,
205,
203,
202,
201,
1FF;