01000000001
01000000010
01000000011
01000000101
01000000110
01000000111
01000001001
01000001010
01000001011
01000001101
01000001110
01000001111
01000010001
01000010010
01000010011
01000010100
01000010110
01000010111
01000011000
01000011010
01000011011
01000011100
01000011110
01000011111
01000100000
01000100010
01000100011
01000100100
01000100110
01000100111
01000101001
01000101010
01000101011
01000101101
01000101110
01000101111
01000110001
01000110010
01000110011
01000110101
01000110110
01000110111
01000111001
01000111010
01000111011
01000111101
01000111110
01000111111
01001000001
01001000010
01001000011
01001000101
01001000110
01001000111
01001001001
01001001010
01001001100
01001001101
01001001110
01001010000
01001010001
01001010010
01001010100
01001010101
01001010110
01001011000
01001011001
01001011010
01001011100
01001011101
01001011110
01001100000
01001100001
01001100011
01001100100
01001100101
01001100111
01001101000
01001101001
01001101011
01001101100
01001101101
01001101111
01001110000
01001110001
01001110011
01001110100
01001110101
01001110111
01001111000
01001111010
01001111011
01001111100
01001111110
01001111111
01010000000
01010000010
01010000011
01010000100
01010000110
01010000111
01010001000
01010001010
01010001011
01010001101
01010001110
01010001111
01010010001
01010010010
01010010011
01010010101
01010010110
01010010111
01010011001
01010011010
01010011011
01010011101
01010011110
01010011111
01010100001
01010100010
01010100011
01010100101
01010100110
01010100111
01010101001
01010101010
01010101100
01010101101
01010101110
01010110000
01010110001
01010110010
01010110100
01010110101
01010110110
01010111000
01010111001
01010111010
01010111100
01010111101
01010111110
01011000000
01011000001
01011000010
01011000100
01011000101
01011000110
01011001000
01011001001
01011001010
01011001011
01011001101
01011001110
01011001111
01011010001
01011010010
01011010011
01011010101
01011010110
01011010111
01011011001
01011011010
01011011011
01011011101
01011011110
01011011111
01011100001
01011100010
01011100011
01011100100
01011100110
01011100111
01011101000
01011101010
01011101011
01011101100
01011101101
01011101111
01011110000
01011110001
01011110011
01011110100
01011110101
01011110111
01011111000
01011111001
01011111010
01011111100
01011111101
01011111110
01011111111
01100000001
01100000010
01100000011
01100000101
01100000110
01100000111
01100001000
01100001010
01100001011
01100001100
01100001101
01100001111
01100010000
01100010001
01100010010
01100010100
01100010101
01100010110
01100010111
01100011001
01100011010
01100011011
01100011100
01100011101
01100011111
01100100000
01100100001
01100100010
01100100100
01100100101
01100100110
01100100111
01100101000
01100101010
01100101011
01100101100
01100101101
01100101111
01100110000
01100110001
01100110010
01100110011
01100110101
01100110110
01100110111
01100111000
01100111001
01100111010
01100111100
01100111101
01100111110
01100111111
01101000000
01101000001
01101000011
01101000100
01101000101
01101000110
01101000111
01101001000
01101001010
01101001011
01101001100
01101001101
01101001110
01101001111
01101010000
01101010010
01101010011
01101010100
01101010101
01101010110
01101010111
01101011000
01101011001
01101011011
01101011100
01101011101
01101011110
01101011111
01101100000
01101100001
01101100010
01101100011
01101100100
01101100110
01101100111
01101101000
01101101001
01101101010
01101101011
01101101100
01101101101
01101101110
01101101111
01101110000
01101110001
01101110010
01101110011
01101110100
01101110110
01101110111
01101111000
01101111001
01101111010
01101111011
01101111100
01101111101
01101111110
01101111111
01110000000
01110000001
01110000010
01110000011
01110000100
01110000101
01110000110
01110000111
01110001000
01110001001
01110001010
01110001011
01110001100
01110001101
01110001110
01110001111
01110010000
01110010001
01110010001
01110010010
01110010011
01110010100
01110010101
01110010110
01110010111
01110011000
01110011001
01110011010
01110011011
01110011100
01110011101
01110011110
01110011110
01110011111
01110100000
01110100001
01110100010
01110100011
01110100100
01110100101
01110100110
01110100110
01110100111
01110101000
01110101001
01110101010
01110101011
01110101100
01110101100
01110101101
01110101110
01110101111
01110110000
01110110001
01110110010
01110110010
01110110011
01110110100
01110110101
01110110110
01110110110
01110110111
01110111000
01110111001
01110111010
01110111010
01110111011
01110111100
01110111101
01110111101
01110111110
01110111111
01111000000
01111000000
01111000001
01111000010
01111000011
01111000011
01111000100
01111000101
01111000110
01111000110
01111000111
01111001000
01111001000
01111001001
01111001010
01111001011
01111001011
01111001100
01111001101
01111001101
01111001110
01111001111
01111001111
01111010000
01111010001
01111010001
01111010010
01111010011
01111010011
01111010100
01111010101
01111010101
01111010110
01111010110
01111010111
01111011000
01111011000
01111011001
01111011001
01111011010
01111011011
01111011011
01111011100
01111011100
01111011101
01111011101
01111011110
01111011111
01111011111
01111100000
01111100000
01111100001
01111100001
01111100010
01111100010
01111100011
01111100011
01111100100
01111100100
01111100101
01111100101
01111100110
01111100110
01111100111
01111100111
01111101000
01111101000
01111101001
01111101001
01111101010
01111101010
01111101011
01111101011
01111101100
01111101100
01111101100
01111101101
01111101101
01111101110
01111101110
01111101111
01111101111
01111101111
01111110000
01111110000
01111110001
01111110001
01111110001
01111110010
01111110010
01111110010
01111110011
01111110011
01111110011
01111110100
01111110100
01111110100
01111110101
01111110101
01111110101
01111110110
01111110110
01111110110
01111110111
01111110111
01111110111
01111111000
01111111000
01111111000
01111111000
01111111001
01111111001
01111111001
01111111001
01111111010
01111111010
01111111010
01111111010
01111111011
01111111011
01111111011
01111111011
01111111100
01111111100
01111111100
01111111100
01111111100
01111111100
01111111101
01111111101
01111111101
01111111101
01111111101
01111111110
01111111110
01111111110
01111111110
01111111110
01111111110
01111111110
01111111110
01111111111
01111111111
01111111111
01111111111
01111111111
01111111111
01111111111
01111111111
01111111111
01111111111
10000000000
10000000000
10000000000
10000000000
10000000000
10000000000
10000000000
10000000000
10000000000
10000000000
10000000000
10000000000
10000000000
10000000000
10000000000
10000000000
10000000000
10000000000
10000000000
10000000000
10000000000
10000000000
10000000000
10000000000
10000000000
10000000000
10000000000
10000000000
10000000000
01111111111
01111111111
01111111111
01111111111
01111111111
01111111111
01111111111
01111111111
01111111111
01111111111
01111111110
01111111110
01111111110
01111111110
01111111110
01111111110
01111111110
01111111110
01111111101
01111111101
01111111101
01111111101
01111111101
01111111100
01111111100
01111111100
01111111100
01111111100
01111111100
01111111011
01111111011
01111111011
01111111011
01111111010
01111111010
01111111010
01111111010
01111111001
01111111001
01111111001
01111111001
01111111000
01111111000
01111111000
01111111000
01111110111
01111110111
01111110111
01111110110
01111110110
01111110110
01111110101
01111110101
01111110101
01111110100
01111110100
01111110100
01111110011
01111110011
01111110011
01111110010
01111110010
01111110010
01111110001
01111110001
01111110001
01111110000
01111110000
01111101111
01111101111
01111101111
01111101110
01111101110
01111101101
01111101101
01111101100
01111101100
01111101100
01111101011
01111101011
01111101010
01111101010
01111101001
01111101001
01111101000
01111101000
01111100111
01111100111
01111100110
01111100110
01111100101
01111100101
01111100100
01111100100
01111100011
01111100011
01111100010
01111100010
01111100001
01111100001
01111100000
01111100000
01111011111
01111011111
01111011110
01111011101
01111011101
01111011100
01111011100
01111011011
01111011011
01111011010
01111011001
01111011001
01111011000
01111011000
01111010111
01111010110
01111010110
01111010101
01111010101
01111010100
01111010011
01111010011
01111010010
01111010001
01111010001
01111010000
01111001111
01111001111
01111001110
01111001101
01111001101
01111001100
01111001011
01111001011
01111001010
01111001001
01111001000
01111001000
01111000111
01111000110
01111000110
01111000101
01111000100
01111000011
01111000011
01111000010
01111000001
01111000000
01111000000
01110111111
01110111110
01110111101
01110111101
01110111100
01110111011
01110111010
01110111010
01110111001
01110111000
01110110111
01110110110
01110110110
01110110101
01110110100
01110110011
01110110010
01110110010
01110110001
01110110000
01110101111
01110101110
01110101101
01110101100
01110101100
01110101011
01110101010
01110101001
01110101000
01110100111
01110100110
01110100110
01110100101
01110100100
01110100011
01110100010
01110100001
01110100000
01110011111
01110011110
01110011110
01110011101
01110011100
01110011011
01110011010
01110011001
01110011000
01110010111
01110010110
01110010101
01110010100
01110010011
01110010010
01110010001
01110010001
01110010000
01110001111
01110001110
01110001101
01110001100
01110001011
01110001010
01110001001
01110001000
01110000111
01110000110
01110000101
01110000100
01110000011
01110000010
01110000001
01110000000
01101111111
01101111110
01101111101
01101111100
01101111011
01101111010
01101111001
01101111000
01101110111
01101110110
01101110100
01101110011
01101110010
01101110001
01101110000
01101101111
01101101110
01101101101
01101101100
01101101011
01101101010
01101101001
01101101000
01101100111
01101100110
01101100100
01101100011
01101100010
01101100001
01101100000
01101011111
01101011110
01101011101
01101011100
01101011011
01101011001
01101011000
01101010111
01101010110
01101010101
01101010100
01101010011
01101010010
01101010000
01101001111
01101001110
01101001101
01101001100
01101001011
01101001010
01101001000
01101000111
01101000110
01101000101
01101000100
01101000011
01101000001
01101000000
01100111111
01100111110
01100111101
01100111100
01100111010
01100111001
01100111000
01100110111
01100110110
01100110101
01100110011
01100110010
01100110001
01100110000
01100101111
01100101101
01100101100
01100101011
01100101010
01100101000
01100100111
01100100110
01100100101
01100100100
01100100010
01100100001
01100100000
01100011111
01100011101
01100011100
01100011011
01100011010
01100011001
01100010111
01100010110
01100010101
01100010100
01100010010
01100010001
01100010000
01100001111
01100001101
01100001100
01100001011
01100001010
01100001000
01100000111
01100000110
01100000101
01100000011
01100000010
01100000001
01011111111
01011111110
01011111101
01011111100
01011111010
01011111001
01011111000
01011110111
01011110101
01011110100
01011110011
01011110001
01011110000
01011101111
01011101101
01011101100
01011101011
01011101010
01011101000
01011100111
01011100110
01011100100
01011100011
01011100010
01011100001
01011011111
01011011110
01011011101
01011011011
01011011010
01011011001
01011010111
01011010110
01011010101
01011010011
01011010010
01011010001
01011001111
01011001110
01011001101
01011001011
01011001010
01011001001
01011001000
01011000110
01011000101
01011000100
01011000010
01011000001
01011000000
01010111110
01010111101
01010111100
01010111010
01010111001
01010111000
01010110110
01010110101
01010110100
01010110010
01010110001
01010110000
01010101110
01010101101
01010101100
01010101010
01010101001
01010100111
01010100110
01010100101
01010100011
01010100010
01010100001
01010011111
01010011110
01010011101
01010011011
01010011010
01010011001
01010010111
01010010110
01010010101
01010010011
01010010010
01010010001
01010001111
01010001110
01010001101
01010001011
01010001010
01010001000
01010000111
01010000110
01010000100
01010000011
01010000010
01010000000
01001111111
01001111110
01001111100
01001111011
01001111010
01001111000
01001110111
01001110101
01001110100
01001110011
01001110001
01001110000
01001101111
01001101101
01001101100
01001101011
01001101001
01001101000
01001100111
01001100101
01001100100
01001100011
01001100001
01001100000
01001011110
01001011101
01001011100
01001011010
01001011001
01001011000
01001010110
01001010101
01001010100
01001010010
01001010001
01001010000
01001001110
01001001101
01001001100
01001001010
01001001001
01001000111
01001000110
01001000101
01001000011
01001000010
01001000001
01000111111
01000111110
01000111101
01000111011
01000111010
01000111001
01000110111
01000110110
01000110101
01000110011
01000110010
01000110001
01000101111
01000101110
01000101101
01000101011
01000101010
01000101001
01000100111
01000100110
01000100100
01000100011
01000100010
01000100000
01000011111
01000011110
01000011100
01000011011
01000011010
01000011000
01000010111
01000010110
01000010100
01000010011
01000010010
01000010001
01000001111
01000001110
01000001101
01000001011
01000001010
01000001001
01000000111
01000000110
01000000101
01000000011
01000000010
01000000001
00111111111
